#include "ffonn.h"
#include <stdlib.h>
#include <stdio.h>

Layer_t shot_detect_layers[7];
FLOAT shot_detect_weight_00[] = {-0.1302122026682,-0.2012943923473,-0.0832649320364,0.0332581922412,0.1173381134868,0.0860785469413,0.2102029323578,0.2216012477875,-0.0479262173176,-0.0678487867117,-0.1286093741655,0.1732684969902,-0.0842600911856,-0.1873559355736,0.3254904448986,0.0067952754907,-0.0201288405806,0.0158764291555,-0.1608859151602,-0.3314675092697,0.0807445496321,-0.0493470095098,-0.0518092513084,-0.1849687844515,0.1718797087669,-0.0857493728399,0.0087669715285,0.2325634807348,0.0469921045005,-0.1235614195466,-0.2999105155468,-0.1899301409721,-0.0436859801412,0.1866352856159,-0.2841286361217,0.2177133262157,0.1082591786981,-0.1242963522673,0.1037428677082,-0.0312115829438,0.2692974805832,-0.1368337571621,0.1023782119155,0.1485385745764,0.1939798295498,0.1471325606108,0.1159935891628,-0.0017432876630,0.0013532799203,0.3736242949963,0.0222245361656,-0.1809251159430,-0.2069138586521,-0.1460239440203,-0.2790641784668,0.1771707087755,-0.0372368097305,0.1477341055870,0.0628773272038,-0.1880245804787,0.0980119034648,-0.0302761495113,-0.0775739103556,-0.3363703489304,0.0691799223423,-0.0002952603681,-0.0269561186433,0.0301236063242,0.1128561198711,0.0228790920228,0.0262996759266,0.0213963110000,0.2874104380608,-0.1558530777693,-0.2035455405712,0.3623415529728,-0.1243510842323,0.0326317884028,0.2254082411528,-0.0476454161108,0.1591939181089,0.1574717909098,0.1467505097389,0.0054389829747,-0.1740486174822,0.1388017088175,-0.0859000608325,-0.0564519874752,-0.1863773614168,-0.2114006876945};
FLOAT shot_detect_bias_00[] = {0.0202830675989,0.0319462083280,0.1671102344990,0.2847483158112,-0.0039083440788,0.1859421432018,-0.0247056391090,-0.0384175367653,-0.0262178983539,-0.3782004714012};
FLOAT shot_detect_weight_02[] = {1.1411662101746,0.6300173997879,2.7477447986603,1.2158894538879,2.6066875457764,0.4725797772408,0.5823506116867,-0.2136871665716,-0.6536666750908,-1.4571805000305};
FLOAT shot_detect_bias_02[] = {0.1321029812098};
FLOAT shot_detect_weight_05[] = {0.0485285893083,0.5766254663467,-0.1566267162561,0.1531712263823,-0.0805950313807,0.2400921583176,-0.1170058697462,-0.1624176651239,-1.7417448759079,1.6553227901459,-0.8966670632362,0.9088293313980,-0.9810268282890,-1.4075622558594,1.2229430675507,0.9185301065445,-1.3168021440506,1.1759049892426,0.9048783779144,1.7631900310516,-2.1659069061279,-0.8385141491890,1.9078770875931,0.7903370261192,-0.1191041991115,-0.1487711519003,0.6389909386635,1.0720802545547,1.0951325893402,0.6753926873207,0.5732104778290,-0.3922419846058,1.1575928926468,-0.1077082157135,0.0309844687581,-0.3245856463909,0.9310129880905,0.0336614549160,0.6523266434669,0.2497732043266,0.5147314667702,-0.9229326248169,-0.3073374629021,-0.1571581661701,0.4881151616573,0.8384159207344,-1.9573352336884,-1.4575502872467,0.4999654591084,-0.1133310869336,-1.0258463621140,-1.1008064746857,1.4391314983368,0.8101848959923,1.3561271429062,2.2729873657227,0.4525598883629,0.5197823047638,-0.9521630406380,-0.4322900176048,-0.3369064927101,0.1850279420614,-0.7533255219460,-0.2518587708473,0.7099207639694,1.4920793771744,-0.6563529372215,-0.6343442201614,-0.3535040318966,1.2012668848038,0.0506881549954,0.5111016035080,0.2730004489422,0.2506360113621,-1.7128494977951,0.4500589668751,0.0705762207508,0.9746192693710,0.3650056719780,0.5302199125290,-2.1532378196716,-0.1884797215462,0.0725164413452,1.7646579742432,-1.5708500146866,0.9175524115562,-1.1559785604477,-1.2387104034424,-0.7264218926430,0.6778762340546,0.9569187760353,0.6663849353790,-0.2786370515823,0.8513527512550,-0.1002660989761,0.6040842533112,1.0170671939850,1.1090592145920,0.9617044925690,0.3432832956314,-0.1176253706217,0.0829076915979,-1.0392389297485,-1.1110297441483,-0.0127295963466,-0.9530296921730,-0.7515905499458,0.1980239897966,-0.4590913653374,0.8381803631783,1.2719030380249,-0.5682352185249,-1.6411446332932,0.5610777735710,1.1478896141052,0.5052965283394,-0.2827228903770,0.0352165326476,-0.9524228572845,-0.7103768587112,1.7059667110443,-0.5614753365517,1.5700097084045,2.0680794715881,0.8805701732635,0.9347176551819,0.3490388989449,0.2078185528517,-0.6589559912682,-1.8475867509842,-1.6999044418335,-0.5709165930748,-0.0699638426304,-1.4558053016663,-0.1545153260231,-1.1124335527420,1.3853794336319,-0.8276724815369,0.9599554538727,-0.8370856046677,-0.7395510673523,-0.0882691591978,-0.6211554408073,1.9356213808060,-0.3153961598873,-0.2151158004999,1.6475121974945,0.2256175279617,-0.1944637000561,0.9140698313713,0.9017468094826,-0.1456720679998,1.2584502696991,0.1176285445690,0.2763991653919,2.0793635845184,-0.9259895682335,-1.6533666849136,-2.5957255363464,0.1383544802666,-0.4890995025635,-0.0798431336880,-0.3378830254078,-0.1111506223679,0.1767354160547,-0.0787685513496,-1.2898800373077,1.7067062854767,-1.2724249362946,-0.0980487316847,-0.5511140227318,-0.4689940512180,-0.2967102825642,0.5350568890572,0.1007389128208,-2.3710653781891};
FLOAT shot_detect_bias_05[] = {0.1235987097025,-0.1354782730341};

FLOAT input[] = {0.6411100625992,0.2728976607323,0.0853130817413,0.0219697952271,0.2405410408974,0.3116283416748,0.2823823690414,0.4476453065872,0.0664761662483,0.3839128017426,0.5973406434059,0.6599275469780,0.0209562778473,0.1044496893883,0.7435582280159,0.9809052944183,0.0002992153168,0.5024824738503,0.4995501041412,0.2903860807419,0.0217740535736,0.6282760500908,0.6804323196411,0.4030629396439,0.2726800441742,0.2839391827583,0.0624641776085,0.0934348106384,0.7050845623016,0.4113773703575,0.2347904443741,0.4195834994316,0.1812502145767,0.0866170525551,0.9465274214745,0.5913358926773,0.4427677392960,0.9513754248619,0.9453483223915,0.6782736182213,0.3057064414024,0.5953932404518,0.4821091890335,0.7987650632858,0.9866033792496,0.3791355490685,0.6325114965439,0.6093360781670,0.2661898136139,0.1147035360336,0.0186042785645,0.2358960509300,0.7463649511337,0.7451785802841,0.9561516046524,0.9296792745590,0.5541628003120,0.1033249497414,0.0843744874001,0.7259598970413,0.6345430612564,0.9746792316437,0.4430730938911,0.3097177147865,0.6444795727730,0.0699575543404,0.1437542438507,0.7200617194176,0.9066157937050,0.6695206761360,0.5870057940483,0.9641286730766,0.7290933132172,0.1613938808441,0.1679670810699,0.9579202532768,0.8608247041702,0.3617440462112,0.2867130041122,0.9954474568367,0.7550643682480,0.6749132275581,0.9060102105141,0.9469022154808,0.2532012462616,0.0611169338226,0.0283281803131,0.2095930576324,0.3339815139771,0.4955223798752,0.8856037855148,0.3815477490425,0.4079864025116,0.9471560120583,0.5671728253365,0.0694800019264,0.3722898960114,0.8481236696243,0.0565685629845,0.6554245948792,0.4246047735214,0.7347670197487,0.8001114726067,0.4756591320038,0.9203284382820,0.7312172651291,0.5840519666672,0.7923423051834,0.2488937377930,0.9606422185898,0.8052137494087,0.6209402680397,0.8852005600929,0.3960861563683,0.4873804450035,0.8894649147987,0.6543493270874,0.1145489215851,0.3332929015160,0.4853873252869,0.4018293619156,0.3801321983337,0.1206865906715,0.2966617345810,0.9482093453407,0.3447366356850,0.7527959346771,0.8658530116081,0.0746073126793,0.6147904396057,0.9754194021225,0.1481518745422,0.0342031121254,0.9793478250504,0.4812839031219,0.0517574548721,0.7290946841240,0.1051238179207,0.5478426218033,0.2626244425774,0.4398777484894,0.7788780331612,0.8863613605499,0.8840472698212,0.3962299227715,0.8171963095665,0.3834733366966,0.6357427835464,0.5591852664948,0.1789759397507,0.3905947804451,0.8961731791496,0.6733387708664,0.0720776915550,0.5823175907135,0.7739439606667,0.7123272418976,0.0090796351433,0.5051688551903,0.3062931895256,0.7196971774101,0.5675503611565,0.2860186696053,0.4521597623825,0.3192402124405,0.9421298503876,0.5523548126221,0.4958568215370,0.8250874280930,0.0803267955780,0.9377969503403,0.1319705247879,0.3845512270927,0.7362942099571,0.0340556502342,0.8606897592545,0.8289138674736,0.8686280846596,0.8988406658173,0.2951104640961,0.2519997358322,0.6595144867897,0.4491215944290,0.3939311504364,0.8944367170334,0.9466037154198,0.0223801136017,0.1255723237991,0.4537089467049,0.1051740646362,0.4034777283669,0.0409917831421,0.2224362492561,0.8026134967804,0.6011757850647,0.4948515892029,0.9493122100830,0.8746699094772,0.3698215484619,0.7678266167641,0.4852211475372,0.4909538626671,0.5783839225769,0.0741315484047,0.9325045943260,0.4148402810097,0.2413281202316,0.7213559746742,0.8684918880463,0.7914264798164,0.1258530616760,0.9519251585007,0.5090822577477,0.4415994882584,0.6558883190155,0.9873257875443,0.3077806234360,0.8229372501373,0.2279988527298,0.0792390704155,0.4870184659958,0.1286747455597,0.7919014692307,0.4510387182236,0.9568602442741,0.9852069616318,0.2727183699608,0.3845052123070,0.4483665823936,0.2786091566086,0.2600869536400,0.5671276450157,0.5593197345734,0.8619335293770,0.6222559809685,0.9031277298927,0.1453915238380,0.4308284521103,0.4516488909721,0.4476471543312,0.3949981331825,0.7844098210335,0.6154119372368,0.3341697454453,0.6441937088966,0.9221708178520,0.9420328736305,0.5438118577003,0.8780578970909,0.1834596395493,0.5736489295959,0.4421660900116,0.7200739979744,0.1247486472130,0.0327377319336,0.3253343701363,0.7880076169968,0.9273141026497,0.2483220696449,0.8227093219757,0.6437417864799,0.2926262617111,0.4336123466492,0.1233091354370};

Network_t shot_detect_make(int* ok) {
    *ok = 0;
    if(!EXECUTION_OK) return Network_make(Mat_make_empty(), 0, NULL);
    Mat_t network_input = Mat_make_3d(1, 88, 3);
    shot_detect_layers[0] = Layer_make_conv_2d(network_input, 10, 3, 3, 1, 0, 1, 1, shot_detect_weight_00, shot_detect_bias_00);
    shot_detect_layers[1] = Layer_make_relu(Layer_output(shot_detect_layers[0]));
    shot_detect_layers[2] = Layer_make_conv_2d(Layer_output(shot_detect_layers[1]), 1, 1, 1, 0, 0, 1, 1, shot_detect_weight_02, shot_detect_bias_02);
    shot_detect_layers[3] = Layer_make_relu(Layer_output(shot_detect_layers[2]));
    shot_detect_layers[4] = Layer_make_flatten(Layer_output(shot_detect_layers[3]));
    shot_detect_layers[5] = Layer_make_dense(Layer_output(shot_detect_layers[4]), 2, shot_detect_weight_05, shot_detect_bias_05);
    shot_detect_layers[6] = Layer_make_relu(Layer_output(shot_detect_layers[5]));
    Network_t network = Network_make(network_input, 7, shot_detect_layers);
    *ok = 1;
    return network;
}

int main()
{
    int ok;
    Network_t network = shot_detect_make(&ok);

//    int gen_input_size = Mat_size(network.input);
    //FLOAT* gen_input_data = (FLOAT*)malloc(gen_input_size * sizeof(FLOAT));
    //for(int i = 0; i < gen_input_size; i++) gen_input_data[i] = 1;

    Mat_copy_data(Network_input(network), input);
    Network_print(network);

    Network_apply(network);
    Mat_print_1d(Network_output(network));

    Network_free(network);
    return 0;
}
